00111111000101100011000001001010
00111110000001011111101011101010
00111101101011111111010001101001
00111110011000010000011010000100
00111100100110001110110101000001
00111111010111110100001011101011
10111101101111010101101000101001
00111110001100111110101101100101
00111110111101011010110100010001
10111111001111110100000011001110
00111110000101010010001111011100
00111111000111000000101100101111
10111111011000010001001110010000
10111110000100010000001100111101
00111110111010101110011000010010
10111111001100111101101110010010
10111111010011000101011000010011
10111101110101101101010110001010
10111101010000110000100100100101
10111110000101000101111000001101
10111110110100110011011011101000
10111111011011111010111100011011
10111111000000101001101000011000
10111111001111010110110111000110
10111110000100011100000101011011
10111111001000001011000101110000
10111111010000001001000001011000
10111110111001110101001110010100
00111111010010101011100111001011
00111111000101010000110010010010
10111100111100010011000000000011
00111110100001000101011110011011
10111101101111110001000101001101
00111110100101111101001110100111
00111110111101101100010101011010
10111111011011010011000111010110
00111111000100101011100111101111
00111111010011001011100101011111
00111110111100100010101011011101
10111110101111010101011010010011
00111111011011111111010000001101
10111111000111000101010011110000
10111111000100110100110010101010
00111110110101101000100101110011
00111110011001011111110100010101
10111111001011001101101000110100
10111111011101010010010101010101
00111110110001101101101101101000
10111110111000111100000011110000
10111111001011111000010010010010
00111111011111010101001101100111
10111111000001101011110000011010
10111111000101001111111100000110
00111110001111110011001110011101
00111111000000100101100100010010
00111110111011011100111100010110
00111111001010010010000011011011
00111101010111000000110011101110
10111111010010100111000011100001
10111111000011100001001000011000
10111111010110101011110101101110
10111110100011001010110001011000
10111110000001100100101001100001
00111110000001010100010100000101
10111011101101010000101100100010
10111110110110101100010011101110
00111111001011000000110110000110
10111111001100001011100000000101
00111100011100101101001101000100
00111111000011001000100110101010
10111111000000001010101000101110
10111110100011000101111111001010
10111111011100010110000110001000
00111111011011000111110111001001
10111101101001100011010001001101
00111111010001100110100111001000
10111110111000101111100111100000
00111110100100110100001100101001
00111110101111111000011110111011
00111110111001100000011100010010
00111111000111111011010001101010
00111110111010011001110001111011
00111110010110100101100001101101
10111110010001010001001000100101
00111111010110011001101111001001
00111110111110000101001111011110
00111110110001110011111011011010
00111111010010011110111011010011
00111111001000001100100001010100
10111111011011100000011101011100
10111111010000100111101001011000
00111110010101110110010011011010
00111101110000110001010011110010
00111111010101001010001111000101
00111110110001001111000101001100
00111110011000011000111001110100
00111111011001010010101001110110
00111111011110110111111101111001
00111111001001100011010011100111
10111111010010110000010110111111
10111111001010100101110100000101
10111101010111111101111011001111
00111110000010100100010010001011
10111111011011100100110111101001
10111101111101010001011110011100
00111111010001101010000110101010
10111101110010110101100111011110
10111111000010011000111111011010
10111110101001101111001011001111
10111111011110010001100000101000
10111110100001100011001000101000
00111110001111101111001111100101
10111110011011010100101110100110
00111111001100100110011010000101
10111111011101111111100101001010
00111111011111001100110011000110
10111110101110100010011000100011
10111111010010111010101110111000
00111110100101011000111001000110
10111110001010101111001101001001
00111111000110010111100010001011
10111110111000001111011110010100
00111101101111011111000110010100
10111110100111001111101001111011
10111111011000111111000000100111
10111110001010001001000000010101
00111111010110111000110011110110
10111110100000100100100000010110
10111111000110011010110011010110
10111111001010101110011011011100
00111110110001100010011110100100
00111111001110100110111000100010
00111110111111100100110101001011
10111111011101010101111001000110
00111111010101010001101010111101
10111110101111111010111000101110
10111110101000010111111010111111
00111111000011000001110011110101
10111110111010000101110000101011
00111110000000110000011111111000
00111111011011101110111001110010
00111110110111010100001110111111
00111100001010000010001001000001
10111111000011010001110101011011
00111101010111111111101110101011
10111111011001000100100010101110
10111111000000001101101010100001
10111110000111101110000100010010
10111111010101001110111111111010
10111110001110011001110000011101
00111111011110000100110000110001
10111111001110001001100101000010
00111110000100000001011111001001
10111111011111100001010001010010
10111110000110011111111111010011
00111110110001100000011100001011
10111110000111110001011010111100
00111111001001100101100011101011
00111111001000111101101110001000
00111111000100110001010100001000
00111110100010100010001111000010
00111110110011111000011001111111
00111110110010011100011100001010
10111111000110100010000110101011
00111110000001110000000010010011
10111110111111110010101001100101
00111111011011001010100000011000
10111111000100001000101110000110
00111111000110100110101000000101
00111111000000000110010101110011
10111111000001010110011110100110
10111111000000110110001111111011
00111111000001100100010011010010
00111111000000110000110001101001
00111111001001010010100110101100
00111111000100111100111110001100
10111110000010001111101101001011
00111101110001011010101000001010
00111101101010110011110101011111
10111110000000010000110101110100
10111011111100101100110011111100
00111110100011110001100010010110
10111111001111100101111010001010
10111110110011110000100011100001
00111110010001000010000100001110
00111110011011010001110110000100
10111110010111101000000001101001
00111111000010110001000000011001
10111110001100101110001100111111
10111111000111111111101101110000
00111111001101011001000110111100
00111110010011011111011101110010
10111111000110101110011001011011
00111111000010011010111011110001
00111110111100001110100100100000
00111111001110010110010101110101
10111110011110101101001100010100
00111110101100100011110011100100
10111110100111111000000010000010
00111111010000111000010101000100
10111110100100000101111000111100
10111110101010101001010000000110
00111111011101101011001111100001
00111111000000111010000000011001
10111110010010011010001110000110
10111111001010101000100000011000
00111110111010111100101001011000
00111111010000100110100001001001
10111110110100110000000001100000
10111110100001101010111001111101
10111111011100001000101011101000
10111111001010100100101001001100
10111111011100111111011000010010
10111110000001111001111010111010
00111110100101001100110000110111
10111111011110010100010011010100
10111111011101010110100100111000
00111110000011001001010100101000
10111110011000000101110100110111
00111111011011100001011001011100
10111111010100101000111010101010
10111110010001101010001100110100
10111110110011110000010101111001
00111110110101110101011000111011
10111111000011110110100101000011
10111110100100010010000011111000
00111111000011111110100001010101
00111111000110110010110010111010
00111110101011000001011010010101
10111111001000101010001111111000
00111111010000110001000110010110
00111111010011100100010000001001
10111111011010000011101111100111
00111100100000000011100000111011
00111111011010010000010000001000
10111111000010010100110111101011
00111111010111011010001010001111
00111110000110101101111100111010
10111111010011000100000000110100
10111110101100101101100001001111
