00111101110100101101110101010011
00111111000000110001011111001001
10111111000001100100011001101100
00111110000111111001011001010000
10111110110101011101101110111011
10111111001011011001110000001100
10111111001001111010110111001011
10111111001111100110111110111100
10111111001100111001111000110011
00111111010000010100111101111010
00111111001111011010010111110000
00111101100011000011011001101001
00111110101110010010101001101010
10111111011001100110010111010010
00111111010110110110000101111000
00111110101011111000100101011011
00111111010010010100000010111110
00111110111010011110110110101101
00111111000001000101010011100111
00111110111001110101000011010100
10111111010010001110010101111110
10111101101011110101010000111010
10111101101001111100100001110111
10111111000011011011011110101110
00111101011100000011010001010010
10111111011111001001011001001000
10111111001100000111010011101110
10111101110010100001111011001111
10111111010011110010000001111001
10111111010010010110110100011101
00111111011110101110010010001100
10111111000011110001000011000101
00111111011010000011111000001110
00111111010011100100010100110101
10111111000111001000011110111100
10111101111100010010100111110000
10111111010001010100011101111010
10111111001101111011011110010111
00111111000010101100010100110011
00111111001101101100101100011101
10111111011100010001001100110101
10111110110010101111100101011011
10111110101110111001001101101001
00111110111100000010000000000110
00111111011001000111101001000111
10111110100011110001001111101000
00111110100101110111000100101111
00111110111010000001000010010000
00111111000010100001100110001000
00111111000000011000000011001111
10111110111001000101010100011101
00111101111111000001100110011011
10111111000011110010000100011101
10111111011010010111100010111110
10111100101100100111100000101100
10111111010010101110011011110111
00111111010011011101110110001101
00111101111101010111000010111110
10111111000011110100110000001001
10111111010001011010100100111100
